const unsigned char model[] = {
  0x1c, 0x00, 0x00, 0x00, 0x54, 0x46, 0x4c, 0x33, 0x14, 0x00, 0x20, 0x00,
  0x04, 0x00, 0x08, 0x00, 0x0c, 0x00, 0x10, 0x00, 0x14, 0x00, 0x00, 0x00,
  0x18, 0x00, 0x1c, 0x00, 0x14, 0x00, 0x00, 0x00, 0x03, 0x00, 0x00, 0x00,
  0x18, 0x00, 0x00, 0x00, 0x1c, 0x00, 0x00, 0x00, 0xa8, 0x00, 0x00, 0x00,
  0x1c, 0x00, 0x00, 0x00, 0x50, 0x00, 0x00, 0x00, 0x48, 0x00, 0x00, 0x00,
  0x01, 0x00, 0x00, 0x00, 0xc0, 0x02, 0x00, 0x00, 0x01, 0x00, 0x00, 0x00,
  0xb0, 0x00, 0x00, 0x00, 0x0c, 0x00, 0x00, 0x00, 0xd4, 0x0a, 0x00, 0x00,
  0xd0, 0x0a, 0x00, 0x00, 0xbc, 0x09, 0x00, 0x00, 0x08, 0x09, 0x00, 0x00,
  0x9c, 0x08, 0x00, 0x00, 0x0c, 0x08, 0x00, 0x00, 0xb8, 0x03, 0x00, 0x00,
  0x24, 0x03, 0x00, 0x00, 0xb4, 0x0a, 0x00, 0x00, 0xb0, 0x0a, 0x00, 0x00,
  0xac, 0x0a, 0x00, 0x00, 0x3c, 0x00, 0x00, 0x00, 0x00, 0x00, 0x00, 0x00,
  0x01, 0x00, 0x00, 0x00, 0x0c, 0x00, 0x00, 0x00, 0x08, 0x00, 0x0c, 0x00,
  0x04, 0x00, 0x08, 0x00, 0x08, 0x00, 0x00, 0x00, 0x08, 0x00, 0x00, 0x00,
  0x0b, 0x00, 0x00, 0x00, 0x13, 0x00, 0x00, 0x00, 0x6d, 0x69, 0x6e, 0x5f,
  0x72, 0x75, 0x6e, 0x74, 0x69, 0x6d, 0x65, 0x5f, 0x76, 0x65, 0x72, 0x73,
  0x69, 0x6f, 0x6e, 0x00, 0xaa, 0xf6, 0xff, 0xff, 0x04, 0x00, 0x00, 0x00,
  0x10, 0x00, 0x00, 0x00, 0x31, 0x2e, 0x35, 0x2e, 0x30, 0x00, 0x00, 0x00,
  0x00, 0x00, 0x00, 0x00, 0x00, 0x00, 0x00, 0x00, 0x0f, 0x00, 0x00, 0x00,
  0x4d, 0x4c, 0x49, 0x52, 0x20, 0x43, 0x6f, 0x6e, 0x76, 0x65, 0x72, 0x74,
  0x65, 0x64, 0x2e, 0x00, 0x00, 0x00, 0x0e, 0x00, 0x18, 0x00, 0x04, 0x00,
  0x08, 0x00, 0x0c, 0x00, 0x10, 0x00, 0x14, 0x00, 0x0e, 0x00, 0x00, 0x00,
  0x14, 0x00, 0x00, 0x00, 0x3c, 0x00, 0x00, 0x00, 0x40, 0x00, 0x00, 0x00,
  0x44, 0x00, 0x00, 0x00, 0x50, 0x00, 0x00, 0x00, 0x0a, 0x00, 0x00, 0x00,
  0xc8, 0x09, 0x00, 0x00, 0x58, 0x09, 0x00, 0x00, 0x94, 0x08, 0x00, 0x00,
  0xec, 0x07, 0x00, 0x00, 0x98, 0x07, 0x00, 0x00, 0x04, 0x07, 0x00, 0x00,
  0xb0, 0x02, 0x00, 0x00, 0xe0, 0x01, 0x00, 0x00, 0xec, 0x00, 0x00, 0x00,
  0x60, 0x00, 0x00, 0x00, 0x01, 0x00, 0x00, 0x00, 0x00, 0x00, 0x00, 0x00,
  0x01, 0x00, 0x00, 0x00, 0x09, 0x00, 0x00, 0x00, 0x03, 0x00, 0x00, 0x00,
  0x68, 0x01, 0x00, 0x00, 0x98, 0x00, 0x00, 0x00, 0x10, 0x00, 0x00, 0x00,
  0x04, 0x00, 0x00, 0x00, 0x6d, 0x61, 0x69, 0x6e, 0x00, 0x00, 0x00, 0x00,
  0x8a, 0xff, 0xff, 0xff, 0x00, 0x00, 0x00, 0x08, 0x18, 0x00, 0x00, 0x00,
  0x0c, 0x00, 0x00, 0x00, 0x04, 0x00, 0x00, 0x00, 0x5c, 0xf6, 0xff, 0xff,
  0x01, 0x00, 0x00, 0x00, 0x09, 0x00, 0x00, 0x00, 0x03, 0x00, 0x00, 0x00,
  0x08, 0x00, 0x00, 0x00, 0x06, 0x00, 0x00, 0x00, 0x03, 0x00, 0x00, 0x00,
  0xd0, 0xf6, 0xff, 0xff, 0x14, 0x00, 0x00, 0x00, 0x0a, 0x00, 0x00, 0x00,
  0x18, 0x00, 0x00, 0x00, 0x30, 0x00, 0x00, 0x00, 0x20, 0x00, 0x00, 0x00,
  0x02, 0x00, 0x00, 0x00, 0x01, 0x00, 0x00, 0x00, 0x01, 0x00, 0x00, 0x00,
  0x08, 0x00, 0x00, 0x00, 0x49, 0x64, 0x65, 0x6e, 0x74, 0x69, 0x74, 0x79,
  0x00, 0x00, 0x00, 0x00, 0x02, 0x00, 0x00, 0x00, 0xff, 0xff, 0xff, 0xff,
  0x01, 0x00, 0x00, 0x00, 0xd4, 0xf7, 0xff, 0xff, 0x00, 0x00, 0x0e, 0x00,
  0x14, 0x00, 0x00, 0x00, 0x08, 0x00, 0x0c, 0x00, 0x07, 0x00, 0x10, 0x00,
  0x0e, 0x00, 0x00, 0x00, 0x00, 0x00, 0x00, 0x08, 0x1c, 0x00, 0x00, 0x00,
  0x10, 0x00, 0x00, 0x00, 0x04, 0x00, 0x00, 0x00, 0x32, 0xff, 0xff, 0xff,
  0x00, 0x00, 0x00, 0x01, 0x01, 0x00, 0x00, 0x00, 0x08, 0x00, 0x00, 0x00,
  0x03, 0x00, 0x00, 0x00, 0x07, 0x00, 0x00, 0x00, 0x05, 0x00, 0x00, 0x00,
  0x02, 0x00, 0x00, 0x00, 0x58, 0xf7, 0xff, 0xff, 0x14, 0x00, 0x00, 0x00,
  0x09, 0x00, 0x00, 0x00, 0x18, 0x00, 0x00, 0x00, 0x74, 0x00, 0x00, 0x00,
  0x64, 0x00, 0x00, 0x00, 0x02, 0x00, 0x00, 0x00, 0x01, 0x00, 0x00, 0x00,
  0x10, 0x00, 0x00, 0x00, 0x4c, 0x00, 0x00, 0x00, 0x73, 0x65, 0x71, 0x75,
  0x65, 0x6e, 0x74, 0x69, 0x61, 0x6c, 0x2f, 0x64, 0x65, 0x6e, 0x73, 0x65,
  0x5f, 0x31, 0x2f, 0x4d, 0x61, 0x74, 0x4d, 0x75, 0x6c, 0x3b, 0x73, 0x65,
  0x71, 0x75, 0x65, 0x6e, 0x74, 0x69, 0x61, 0x6c, 0x2f, 0x64, 0x65, 0x6e,
  0x73, 0x65, 0x5f, 0x31, 0x2f, 0x52, 0x65, 0x6c, 0x75, 0x3b, 0x73, 0x65,
  0x71, 0x75, 0x65, 0x6e, 0x74, 0x69, 0x61, 0x6c, 0x2f, 0x64, 0x65, 0x6e,
  0x73, 0x65, 0x5f, 0x31, 0x2f, 0x42, 0x69, 0x61, 0x73, 0x41, 0x64, 0x64,
  0x00, 0x00, 0x00, 0x00, 0x02, 0x00, 0x00, 0x00, 0xff, 0xff, 0xff, 0xff,
  0x10, 0x00, 0x00, 0x00, 0xa0, 0xf8, 0xff, 0xff, 0x00, 0x00, 0x0e, 0x00,
  0x16, 0x00, 0x00, 0x00, 0x08, 0x00, 0x0c, 0x00, 0x07, 0x00, 0x10, 0x00,
  0x0e, 0x00, 0x00, 0x00, 0x00, 0x00, 0x00, 0x08, 0x24, 0x00, 0x00, 0x00,
  0x18, 0x00, 0x00, 0x00, 0x0c, 0x00, 0x00, 0x00, 0x00, 0x00, 0x06, 0x00,
  0x08, 0x00, 0x07, 0x00, 0x06, 0x00, 0x00, 0x00, 0x00, 0x00, 0x00, 0x01,
  0x01, 0x00, 0x00, 0x00, 0x07, 0x00, 0x00, 0x00, 0x03, 0x00, 0x00, 0x00,
  0x00, 0x00, 0x00, 0x00, 0x04, 0x00, 0x00, 0x00, 0x01, 0x00, 0x00, 0x00,
  0x0c, 0x00, 0x10, 0x00, 0x0b, 0x00, 0x00, 0x00, 0x0c, 0x00, 0x04, 0x00,
  0x0c, 0x00, 0x00, 0x00, 0x09, 0x00, 0x00, 0x00, 0x00, 0x00, 0x00, 0x09,
  0x01, 0x00, 0x00, 0x00, 0x48, 0xf8, 0xff, 0xff, 0x14, 0x00, 0x00, 0x00,
  0x08, 0x00, 0x00, 0x00, 0x18, 0x00, 0x00, 0x00, 0x6c, 0x00, 0x00, 0x00,
  0x5c, 0x00, 0x00, 0x00, 0x02, 0x00, 0x00, 0x00, 0x01, 0x00, 0x00, 0x00,
  0x10, 0x00, 0x00, 0x00, 0x46, 0x00, 0x00, 0x00, 0x73, 0x65, 0x71, 0x75,
  0x65, 0x6e, 0x74, 0x69, 0x61, 0x6c, 0x2f, 0x64, 0x65, 0x6e, 0x73, 0x65,
  0x2f, 0x4d, 0x61, 0x74, 0x4d, 0x75, 0x6c, 0x3b, 0x73, 0x65, 0x71, 0x75,
  0x65, 0x6e, 0x74, 0x69, 0x61, 0x6c, 0x2f, 0x64, 0x65, 0x6e, 0x73, 0x65,
  0x2f, 0x52, 0x65, 0x6c, 0x75, 0x3b, 0x73, 0x65, 0x71, 0x75, 0x65, 0x6e,
  0x74, 0x69, 0x61, 0x6c, 0x2f, 0x64, 0x65, 0x6e, 0x73, 0x65, 0x2f, 0x42,
  0x69, 0x61, 0x73, 0x41, 0x64, 0x64, 0x00, 0x00, 0x02, 0x00, 0x00, 0x00,
  0xff, 0xff, 0xff, 0xff, 0x10, 0x00, 0x00, 0x00, 0x6c, 0xf8, 0xff, 0xff,
  0x82, 0xf9, 0xff, 0xff, 0x04, 0x00, 0x00, 0x00, 0x40, 0x00, 0x00, 0x00,
  0x4c, 0x4b, 0x0a, 0x3f, 0x79, 0xe4, 0xcb, 0xbe, 0x36, 0xab, 0xdd, 0x3f,
  0xc8, 0x0d, 0xef, 0x3e, 0x98, 0x89, 0xef, 0xbd, 0xb4, 0x09, 0xae, 0x3f,
  0xfd, 0x94, 0x5b, 0x3e, 0x7f, 0xdf, 0x0b, 0x3f, 0x54, 0x1f, 0xe3, 0x3e,
  0x2b, 0x8e, 0xdc, 0xbe, 0x06, 0x22, 0x82, 0xbf, 0x65, 0x23, 0x98, 0x3e,
  0x6d, 0x75, 0x2d, 0xbf, 0x0b, 0xed, 0x63, 0xbe, 0xf8, 0xde, 0xfe, 0x3e,
  0x3c, 0xb6, 0xe4, 0xbe, 0x7a, 0xf9, 0xff, 0xff, 0x10, 0x00, 0x00, 0x00,
  0x07, 0x00, 0x00, 0x00, 0x14, 0x00, 0x00, 0x00, 0x30, 0x00, 0x00, 0x00,
  0x02, 0x00, 0x00, 0x00, 0x01, 0x00, 0x00, 0x00, 0x10, 0x00, 0x00, 0x00,
  0x19, 0x00, 0x00, 0x00, 0x73, 0x65, 0x71, 0x75, 0x65, 0x6e, 0x74, 0x69,
  0x61, 0x6c, 0x2f, 0x64, 0x65, 0x6e, 0x73, 0x65, 0x5f, 0x32, 0x2f, 0x4d,
  0x61, 0x74, 0x4d, 0x75, 0x6c, 0x00, 0x00, 0x00, 0xfc, 0xf8, 0xff, 0xff,
  0x12, 0xfa, 0xff, 0xff, 0x04, 0x00, 0x00, 0x00, 0x00, 0x04, 0x00, 0x00,
  0x4d, 0x54, 0x96, 0xbe, 0x98, 0x2f, 0x4f, 0xbe, 0x92, 0xa9, 0x47, 0x3e,
  0x2e, 0x33, 0x51, 0x3e, 0x19, 0x7f, 0xb1, 0xbc, 0x05, 0x66, 0x82, 0x3e,
  0xda, 0xef, 0x0d, 0xbe, 0x78, 0x7d, 0x72, 0xbd, 0x1a, 0x03, 0x07, 0x3e,
  0x48, 0xdb, 0x42, 0x3d, 0xc7, 0x09, 0xcb, 0x3e, 0xc0, 0x2f, 0xfb, 0xbc,
  0x9f, 0x6b, 0x8b, 0xbe, 0x58, 0x24, 0x4e, 0xbd, 0xb4, 0xd4, 0x0b, 0xbe,
  0xe9, 0xe1, 0xb0, 0xbe, 0xab, 0x91, 0xa3, 0xbe, 0xef, 0xe4, 0xb2, 0xbe,
  0x24, 0x27, 0x0d, 0xbf, 0xea, 0xc5, 0x27, 0x3e, 0x51, 0xc3, 0x21, 0xbf,
  0x0e, 0xbf, 0x5e, 0xbe, 0x41, 0x53, 0xa0, 0x3e, 0xca, 0x57, 0x6f, 0x3e,
  0xf9, 0x95, 0x84, 0x3e, 0x65, 0x7c, 0xbf, 0x3e, 0x2a, 0xd3, 0x1a, 0xbe,
  0x3e, 0xb1, 0x57, 0x3f, 0x42, 0x28, 0xa2, 0x3e, 0x40, 0xeb, 0x1c, 0x3d,
  0x4a, 0x0c, 0x43, 0x3e, 0x04, 0x07, 0xb4, 0x3d, 0x7a, 0xe0, 0x6c, 0x3e,
  0x97, 0x89, 0xf5, 0x3e, 0x4c, 0x69, 0xbf, 0xbf, 0xcf, 0xc6, 0x57, 0xbe,
  0x5c, 0x2b, 0xc4, 0x3c, 0x7b, 0x33, 0xe6, 0x3e, 0x40, 0x4a, 0xf1, 0x3b,
  0x4c, 0xb5, 0xe2, 0x3d, 0x93, 0xf7, 0xd7, 0x3e, 0x1a, 0xc6, 0x30, 0xbe,
  0xf8, 0x2d, 0x36, 0xbd, 0xaa, 0x44, 0x33, 0x3f, 0x02, 0x6d, 0x82, 0xbe,
  0xd3, 0xd7, 0xaf, 0x3e, 0x66, 0xca, 0x0b, 0xbf, 0xb3, 0xa7, 0xa4, 0x3e,
  0x30, 0x4c, 0x92, 0xbe, 0x5a, 0x95, 0x5f, 0xbe, 0xb0, 0x78, 0xa6, 0xbc,
  0x08, 0x49, 0x26, 0x3d, 0x74, 0xd1, 0x9d, 0x3d, 0x18, 0xaf, 0xdb, 0xbd,
  0x50, 0x9e, 0x19, 0x3d, 0xef, 0x3b, 0xd2, 0x3e, 0xa7, 0x60, 0xa8, 0x3e,
  0xa8, 0xe0, 0x0f, 0xbe, 0xe8, 0xf8, 0x7f, 0xbd, 0x0c, 0xc4, 0x9e, 0x3d,
  0xc9, 0xc3, 0x73, 0xbe, 0xf8, 0xbf, 0xbf, 0xbe, 0xa8, 0xde, 0x77, 0xbd,
  0x89, 0x9d, 0xb2, 0x3e, 0x00, 0x1d, 0x55, 0x3c, 0x64, 0x6b, 0xd0, 0xbe,
  0x70, 0x35, 0x5f, 0xbe, 0x76, 0x81, 0x48, 0xbe, 0x0d, 0x06, 0xae, 0x3e,
  0x1c, 0x65, 0xe4, 0x3d, 0xcf, 0xd7, 0xb2, 0x3e, 0x73, 0x6b, 0xb7, 0x3e,
  0x5a, 0xa2, 0x1d, 0x3e, 0x60, 0x1c, 0x85, 0x3c, 0xee, 0xce, 0x1c, 0x3e,
  0xaf, 0x29, 0x77, 0xbe, 0xb6, 0xe1, 0x05, 0x3e, 0x24, 0xb0, 0xcb, 0xbd,
  0x15, 0xe1, 0x47, 0xbe, 0xce, 0x83, 0x6a, 0xbe, 0xc4, 0x34, 0xe9, 0xbd,
  0x1f, 0x31, 0xe9, 0x3e, 0xc6, 0xd4, 0xba, 0x3e, 0x3a, 0x20, 0x13, 0x3e,
  0xe3, 0xc2, 0x06, 0x3f, 0xff, 0xe3, 0x7c, 0xbe, 0xb4, 0x9a, 0x85, 0x3d,
  0x5f, 0x02, 0xcd, 0xbe, 0x15, 0x4b, 0xb2, 0xbe, 0x0a, 0xd1, 0x23, 0xbe,
  0x7e, 0xd1, 0x47, 0x3e, 0xfc, 0xc3, 0x12, 0xbf, 0x0e, 0x39, 0x99, 0xbe,
  0x80, 0xc4, 0x3d, 0x3c, 0x9f, 0x4f, 0x22, 0x3f, 0xb0, 0x89, 0x67, 0xbd,
  0xfb, 0x28, 0x6d, 0xbe, 0xfc, 0x8c, 0x18, 0x3e, 0xc0, 0x96, 0xa4, 0x3c,
  0x9b, 0x55, 0x9c, 0x3e, 0x9f, 0x84, 0x0b, 0xbe, 0xef, 0x0f, 0x2b, 0x3e,
  0x0f, 0x16, 0xa3, 0x3e, 0x89, 0xf7, 0x3b, 0xbe, 0x8c, 0xe8, 0x83, 0xbd,
  0xee, 0xae, 0x80, 0xbe, 0xf4, 0xdf, 0xcc, 0x3d, 0x7a, 0x18, 0xe5, 0xbd,
  0xc1, 0xb1, 0xc7, 0xbe, 0x3e, 0x91, 0x27, 0x3e, 0xc2, 0x5a, 0x95, 0xbe,
  0x39, 0xb9, 0x84, 0x3e, 0xeb, 0xd9, 0x9a, 0x3e, 0x7d, 0x9b, 0x63, 0xbe,
  0x0d, 0x95, 0xb0, 0xbe, 0x00, 0x08, 0x2f, 0xbb, 0x81, 0x61, 0xbd, 0xbd,
  0x49, 0x79, 0xac, 0xbe, 0xb8, 0x23, 0x1a, 0xbe, 0x00, 0x15, 0xab, 0xba,
  0x17, 0x39, 0xd7, 0xbe, 0x2c, 0xe6, 0x64, 0xbe, 0x8e, 0x4f, 0x9e, 0xbe,
  0xa9, 0x4e, 0x3f, 0x3e, 0x28, 0xf3, 0x57, 0xbd, 0x3c, 0xf0, 0xf1, 0x3d,
  0x70, 0xf6, 0x89, 0xbe, 0x45, 0x49, 0xc2, 0x3e, 0xd4, 0x95, 0x6a, 0xbe,
  0x30, 0x88, 0xdc, 0xbc, 0x98, 0x35, 0x88, 0x3d, 0xe6, 0xea, 0x0b, 0x3e,
  0x5c, 0x71, 0x07, 0xbe, 0x90, 0x0a, 0x7c, 0xbd, 0xeb, 0x00, 0xcf, 0xbe,
  0xcc, 0xe0, 0xdc, 0xbd, 0x95, 0x07, 0xa4, 0x3e, 0x84, 0x9b, 0x7d, 0xbe,
  0x9a, 0xff, 0x0a, 0xbe, 0xa2, 0x45, 0x7e, 0xbe, 0xc7, 0xb5, 0xaf, 0xbe,
  0xd4, 0x49, 0xcd, 0x3d, 0xc0, 0xd7, 0xb3, 0xbb, 0x92, 0x0b, 0x4b, 0x3e,
  0x38, 0x46, 0x8e, 0xbd, 0x36, 0xa5, 0xdb, 0xbe, 0x3e, 0x70, 0x26, 0x3e,
  0x6c, 0x60, 0xe6, 0x3d, 0xb8, 0x25, 0xa9, 0xbe, 0x8f, 0xbd, 0xe4, 0xbe,
  0x16, 0x7a, 0x20, 0x3e, 0x77, 0xdd, 0xb1, 0xbe, 0x26, 0x52, 0xa5, 0xbe,
  0x49, 0xb0, 0xb2, 0xbe, 0x84, 0x48, 0x9b, 0xbe, 0xea, 0x0c, 0xc5, 0x3e,
  0x6c, 0x76, 0x9b, 0xbe, 0x6d, 0x08, 0xbf, 0xbe, 0x10, 0xfd, 0xe3, 0x3d,
  0x0a, 0x9a, 0x03, 0xbe, 0x7e, 0xa8, 0xc4, 0xbe, 0x45, 0x00, 0x8f, 0xbe,
  0x6e, 0x4b, 0xcb, 0xbe, 0xc8, 0x56, 0xc5, 0xbe, 0x68, 0xb1, 0x90, 0x3e,
  0xf4, 0xc9, 0xbc, 0x3e, 0xb6, 0x37, 0x99, 0xbe, 0x35, 0xcb, 0x6f, 0xbe,
  0xab, 0x61, 0xaf, 0x3e, 0x3e, 0xd9, 0x53, 0xbe, 0x24, 0x1f, 0xc2, 0x3d,
  0x62, 0x8b, 0x01, 0x3f, 0x96, 0x65, 0x7d, 0xbf, 0xa0, 0xc9, 0x93, 0x3c,
  0xcf, 0x70, 0xd9, 0xbd, 0x9e, 0xa6, 0x55, 0xbe, 0x27, 0xbf, 0xb4, 0x3e,
  0x02, 0x70, 0xff, 0xbe, 0x6e, 0x44, 0x22, 0x3e, 0x94, 0xb2, 0xdc, 0xbe,
  0x96, 0x61, 0x82, 0xbe, 0x8c, 0x27, 0xf7, 0x3d, 0xfe, 0x1f, 0x2d, 0x3e,
  0x9b, 0xeb, 0xc4, 0x3e, 0x05, 0x65, 0xac, 0xbe, 0x5e, 0xa8, 0x5c, 0x3e,
  0x19, 0x7d, 0xd2, 0x3e, 0x1a, 0x89, 0xa9, 0x3d, 0xe0, 0x5b, 0x81, 0xbe,
  0xfe, 0xf4, 0xd2, 0xbe, 0xa2, 0x0e, 0x3b, 0xbe, 0x3a, 0xdc, 0x5f, 0x3e,
  0xe1, 0xbc, 0x80, 0x3e, 0x90, 0x56, 0x11, 0x3e, 0x49, 0x59, 0x9e, 0x3e,
  0x80, 0x33, 0x8f, 0x3c, 0x73, 0xd1, 0xb6, 0xbe, 0xcc, 0x1d, 0x90, 0x3e,
  0x84, 0x98, 0xa7, 0xbd, 0x7e, 0x8e, 0x40, 0x3e, 0x55, 0x58, 0xb0, 0x3e,
  0x24, 0x27, 0xa2, 0xbe, 0xfe, 0xd4, 0x22, 0xbe, 0xd9, 0x67, 0xce, 0x3e,
  0x94, 0x9b, 0x09, 0xbf, 0xc6, 0xfd, 0x3a, 0x3e, 0x7a, 0x10, 0x28, 0xbf,
  0xa9, 0xde, 0x86, 0xbe, 0xb7, 0xd0, 0xa9, 0xbe, 0x3c, 0x5d, 0xa3, 0x3e,
  0x49, 0x1e, 0x52, 0xbf, 0xec, 0x27, 0xff, 0x3d, 0x1e, 0xe8, 0x87, 0xbe,
  0x58, 0x7b, 0xd9, 0x3d, 0x43, 0x54, 0xbd, 0x3e, 0xca, 0xc6, 0x14, 0x3e,
  0x03, 0x9f, 0x96, 0x3e, 0xc8, 0xf4, 0x79, 0x3d, 0x36, 0x6b, 0x63, 0x3e,
  0xee, 0x84, 0xed, 0x3e, 0x94, 0xca, 0xd2, 0xbd, 0xd4, 0xc9, 0xaa, 0xbd,
  0x63, 0x99, 0x37, 0x3e, 0xd0, 0xc4, 0xa2, 0xbc, 0x6d, 0x0a, 0xaa, 0x3e,
  0xfc, 0xbc, 0x0f, 0xbe, 0xdc, 0x39, 0x13, 0xbe, 0x9a, 0x33, 0xc6, 0xbe,
  0x40, 0xe0, 0x33, 0xbc, 0xcf, 0x29, 0xaa, 0xbe, 0xb0, 0xc5, 0x38, 0xbe,
  0x50, 0xef, 0x20, 0xbd, 0x34, 0x33, 0x13, 0xbe, 0x32, 0xd2, 0x2e, 0x3e,
  0x24, 0xed, 0x93, 0xbe, 0x75, 0xb6, 0xd1, 0xbe, 0xf4, 0xbd, 0xd1, 0xbe,
  0x37, 0x6d, 0x87, 0xbe, 0x28, 0xb6, 0x03, 0xbd, 0x6a, 0x7b, 0x6e, 0x3e,
  0x00, 0x4c, 0x03, 0x3b, 0x53, 0xce, 0x28, 0xbe, 0x7f, 0x59, 0xa9, 0xbd,
  0xc6, 0xef, 0x07, 0x3e, 0x94, 0x60, 0xe7, 0xbe, 0x0e, 0x04, 0xa4, 0xbe,
  0xd8, 0x42, 0x91, 0xbe, 0xc3, 0x18, 0x86, 0x3e, 0x83, 0xbd, 0xd7, 0x3e,
  0x62, 0x04, 0x77, 0x3e, 0xa4, 0xf7, 0x86, 0xbe, 0x23, 0x08, 0x9a, 0x3e,
  0xc0, 0xd8, 0xae, 0x3e, 0x36, 0x67, 0x17, 0x3e, 0x1d, 0x6f, 0x8f, 0x3e,
  0x8a, 0xf5, 0x72, 0xbe, 0xca, 0xfd, 0xff, 0xff, 0x10, 0x00, 0x00, 0x00,
  0x06, 0x00, 0x00, 0x00, 0x14, 0x00, 0x00, 0x00, 0x30, 0x00, 0x00, 0x00,
  0x02, 0x00, 0x00, 0x00, 0x10, 0x00, 0x00, 0x00, 0x10, 0x00, 0x00, 0x00,
  0x19, 0x00, 0x00, 0x00, 0x73, 0x65, 0x71, 0x75, 0x65, 0x6e, 0x74, 0x69,
  0x61, 0x6c, 0x2f, 0x64, 0x65, 0x6e, 0x73, 0x65, 0x5f, 0x31, 0x2f, 0x4d,
  0x61, 0x74, 0x4d, 0x75, 0x6c, 0x00, 0x00, 0x00, 0x4c, 0xfd, 0xff, 0xff,
  0x62, 0xfe, 0xff, 0xff, 0x04, 0x00, 0x00, 0x00, 0x40, 0x00, 0x00, 0x00,
  0x37, 0x05, 0x9e, 0xbe, 0x42, 0x93, 0x86, 0x3e, 0x73, 0xc1, 0x30, 0x3e,
  0xc3, 0xa4, 0xd4, 0xbe, 0xe8, 0xbc, 0x33, 0x3e, 0xaf, 0xf1, 0x88, 0x3e,
  0xfa, 0x2c, 0xbf, 0xbe, 0xf9, 0xb9, 0x88, 0xbe, 0x6c, 0xd3, 0xc3, 0xbe,
  0x5e, 0x90, 0x70, 0xbe, 0xfe, 0xd6, 0x66, 0xbe, 0x9c, 0x05, 0x52, 0xbd,
  0xb1, 0x0f, 0xf7, 0x3e, 0x43, 0xd1, 0x0d, 0xbf, 0xca, 0xf8, 0x22, 0x3f,
  0x18, 0x1d, 0xf6, 0xbd, 0x5a, 0xfe, 0xff, 0xff, 0x10, 0x00, 0x00, 0x00,
  0x05, 0x00, 0x00, 0x00, 0x14, 0x00, 0x00, 0x00, 0x2c, 0x00, 0x00, 0x00,
  0x02, 0x00, 0x00, 0x00, 0x10, 0x00, 0x00, 0x00, 0x01, 0x00, 0x00, 0x00,
  0x17, 0x00, 0x00, 0x00, 0x73, 0x65, 0x71, 0x75, 0x65, 0x6e, 0x74, 0x69,
  0x61, 0x6c, 0x2f, 0x64, 0x65, 0x6e, 0x73, 0x65, 0x2f, 0x4d, 0x61, 0x74,
  0x4d, 0x75, 0x6c, 0x00, 0xd8, 0xfd, 0xff, 0xff, 0xee, 0xfe, 0xff, 0xff,
  0x04, 0x00, 0x00, 0x00, 0x04, 0x00, 0x00, 0x00, 0xef, 0x23, 0xbe, 0xbe,
  0xaa, 0xfe, 0xff, 0xff, 0x10, 0x00, 0x00, 0x00, 0x04, 0x00, 0x00, 0x00,
  0x10, 0x00, 0x00, 0x00, 0x44, 0x00, 0x00, 0x00, 0x01, 0x00, 0x00, 0x00,
  0x01, 0x00, 0x00, 0x00, 0x32, 0x00, 0x00, 0x00, 0x73, 0x65, 0x71, 0x75,
  0x65, 0x6e, 0x74, 0x69, 0x61, 0x6c, 0x2f, 0x64, 0x65, 0x6e, 0x73, 0x65,
  0x5f, 0x32, 0x2f, 0x42, 0x69, 0x61, 0x73, 0x41, 0x64, 0x64, 0x2f, 0x52,
  0x65, 0x61, 0x64, 0x56, 0x61, 0x72, 0x69, 0x61, 0x62, 0x6c, 0x65, 0x4f,
  0x70, 0x2f, 0x72, 0x65, 0x73, 0x6f, 0x75, 0x72, 0x63, 0x65, 0x00, 0x00,
  0x40, 0xfe, 0xff, 0xff, 0x56, 0xff, 0xff, 0xff, 0x04, 0x00, 0x00, 0x00,
  0x40, 0x00, 0x00, 0x00, 0x3e, 0x6a, 0x2a, 0xbd, 0x69, 0xeb, 0xb7, 0x3e,
  0xfa, 0xa9, 0x33, 0x3f, 0x00, 0x00, 0x00, 0x00, 0x00, 0x00, 0x00, 0x00,
  0x15, 0x3c, 0xef, 0xbe, 0xb2, 0xd3, 0xee, 0xbc, 0x61, 0x21, 0x69, 0xbd,
  0x00, 0x00, 0x00, 0x00, 0xc7, 0xe8, 0xfc, 0x3c, 0x25, 0xd4, 0x8f, 0x3e,
  0xae, 0x85, 0xc1, 0xbd, 0x1f, 0xcc, 0xb5, 0x3e, 0x16, 0xb7, 0x77, 0x3e,
  0x00, 0x00, 0x00, 0x00, 0xc8, 0xed, 0xd6, 0x3e, 0x4e, 0xff, 0xff, 0xff,
  0x10, 0x00, 0x00, 0x00, 0x03, 0x00, 0x00, 0x00, 0x10, 0x00, 0x00, 0x00,
  0x48, 0x00, 0x00, 0x00, 0x01, 0x00, 0x00, 0x00, 0x10, 0x00, 0x00, 0x00,
  0x32, 0x00, 0x00, 0x00, 0x73, 0x65, 0x71, 0x75, 0x65, 0x6e, 0x74, 0x69,
  0x61, 0x6c, 0x2f, 0x64, 0x65, 0x6e, 0x73, 0x65, 0x5f, 0x31, 0x2f, 0x42,
  0x69, 0x61, 0x73, 0x41, 0x64, 0x64, 0x2f, 0x52, 0x65, 0x61, 0x64, 0x56,
  0x61, 0x72, 0x69, 0x61, 0x62, 0x6c, 0x65, 0x4f, 0x70, 0x2f, 0x72, 0x65,
  0x73, 0x6f, 0x75, 0x72, 0x63, 0x65, 0x00, 0x00, 0x04, 0x00, 0x06, 0x00,
  0x04, 0x00, 0x00, 0x00, 0x00, 0x00, 0x06, 0x00, 0x08, 0x00, 0x04, 0x00,
  0x06, 0x00, 0x00, 0x00, 0x04, 0x00, 0x00, 0x00, 0x40, 0x00, 0x00, 0x00,
  0x00, 0x00, 0x00, 0x00, 0xe0, 0xb7, 0x14, 0xbb, 0x75, 0x56, 0xd3, 0xbe,
  0x00, 0x00, 0x00, 0x00, 0x02, 0xd1, 0xc3, 0xbe, 0x30, 0x84, 0xe5, 0x3e,
  0x00, 0x00, 0x00, 0x00, 0x00, 0x00, 0x00, 0x00, 0x00, 0x00, 0x00, 0x00,
  0x00, 0x00, 0x00, 0x00, 0x00, 0x00, 0x00, 0x00, 0x0d, 0x8b, 0x94, 0x3f,
  0xa0, 0xa6, 0x81, 0x3e, 0x00, 0x00, 0x00, 0x00, 0x98, 0xee, 0x1a, 0xbf,
  0x00, 0x00, 0x00, 0x00, 0x00, 0x00, 0x0e, 0x00, 0x14, 0x00, 0x04, 0x00,
  0x00, 0x00, 0x08, 0x00, 0x0c, 0x00, 0x10, 0x00, 0x0e, 0x00, 0x00, 0x00,
  0x10, 0x00, 0x00, 0x00, 0x02, 0x00, 0x00, 0x00, 0x10, 0x00, 0x00, 0x00,
  0x44, 0x00, 0x00, 0x00, 0x01, 0x00, 0x00, 0x00, 0x10, 0x00, 0x00, 0x00,
  0x30, 0x00, 0x00, 0x00, 0x73, 0x65, 0x71, 0x75, 0x65, 0x6e, 0x74, 0x69,
  0x61, 0x6c, 0x2f, 0x64, 0x65, 0x6e, 0x73, 0x65, 0x2f, 0x42, 0x69, 0x61,
  0x73, 0x41, 0x64, 0x64, 0x2f, 0x52, 0x65, 0x61, 0x64, 0x56, 0x61, 0x72,
  0x69, 0x61, 0x62, 0x6c, 0x65, 0x4f, 0x70, 0x2f, 0x72, 0x65, 0x73, 0x6f,
  0x75, 0x72, 0x63, 0x65, 0x00, 0x00, 0x00, 0x00, 0xa4, 0xff, 0xff, 0xff,
  0x14, 0x00, 0x18, 0x00, 0x04, 0x00, 0x00, 0x00, 0x08, 0x00, 0x0c, 0x00,
  0x10, 0x00, 0x00, 0x00, 0x00, 0x00, 0x14, 0x00, 0x14, 0x00, 0x00, 0x00,
  0x14, 0x00, 0x00, 0x00, 0x01, 0x00, 0x00, 0x00, 0x18, 0x00, 0x00, 0x00,
  0x30, 0x00, 0x00, 0x00, 0x20, 0x00, 0x00, 0x00, 0x02, 0x00, 0x00, 0x00,
  0x01, 0x00, 0x00, 0x00, 0x01, 0x00, 0x00, 0x00, 0x0b, 0x00, 0x00, 0x00,
  0x64, 0x65, 0x6e, 0x73, 0x65, 0x5f, 0x69, 0x6e, 0x70, 0x75, 0x74, 0x00,
  0x02, 0x00, 0x00, 0x00, 0xff, 0xff, 0xff, 0xff, 0x01, 0x00, 0x00, 0x00,
  0xfc, 0xff, 0xff, 0xff, 0x04, 0x00, 0x04, 0x00, 0x04, 0x00, 0x00, 0x00
};
